TRT-8401-EntropyCalibration2
input: 3c010a14
input.4: 3d703223
onnx::Mul_314: 3c071e08
input.8: 3cff86a6
input.16: 3e691c50
onnx::Mul_318: 3c010a14
input.20: 3e15f0d0
input.28: 3db80c58
onnx::Mul_322: 3c010a14
input.32: 3dbab37f
input.40: 3c966f98
input.48: 3eaf133e
onnx::Mul_328: 3c010a14
input.52: 3e86e4dc
input.60: 3d39b11a
onnx::Mul_332: 3c21b38a
input.64: 3ce9a7ef
input.72: 3c5babeb
input.80: 3d89c5f6
onnx::Mul_338: 3c04180e
input.84: 3d105643
input.92: 3d6eabfc
onnx::Mul_342: 3c02ec1e
input.96: 3cd25c82
onnx::Add_1048: 3c4e2c46
input.104: 3c95cd78
input.112: 3d807a12
onnx::Mul_349: 3c00f9f0
input.116: 3d028b1e
input.124: 3d54c42e
onnx::Mul_353: 3c0092f9
input.128: 3c90bb30
onnx::Add_1057: 3c95a477
input.136: 3ce106c5
input.144: 3d83c7a2
onnx::Mul_360: 3c00f1d1
input.148: 3cc05647
input.156: 3d1b3a90
onnx::Mul_364: 3c0007d4
input.160: 3cd04037
input.168: 3c5894a8
input.176: 3d21c92a
onnx::Mul_370: 3c01850d
input.180: 3cc21eba
fm: 3d98cb81
onnx::Reshape_375: 3d98cb81
onnx::Reshape_378: 3d98cb81
input.184: 3d98cb81
onnx::Sub_381: 3a1326d6
onnx::Pow_382: 3d9e8ced
(Unnamed Layer* 52) [Shuffle]_output: 3c810a14
onnx::ReduceMean_384: 3eb3cfc8
onnx::Add_385: 3d56fa84
(Unnamed Layer* 56) [Shuffle]_output: 33a9226d
onnx::Sqrt_387: 3d56fa99
onnx::Div_388: 3ca95088
onnx::Mul_389: 3d59293a
(Unnamed Layer* 61) [Shuffle]_output: 3b77914b
onnx::Add_390: 3c1b137e
(Unnamed Layer* 64) [Shuffle]_output: 3b3ced5a
x: 3c1aad7c
onnx::Gather_397: 3d547558
onnx::Mul_399: 3d65fed0
onnx::Transpose_401: 3d523664
onnx::MatMul_403: 3ccb7410
onnx::MatMul_405: 3c19548b
onnx::MatMul_406: 3d523664
input.188: 3e24a83f
(Unnamed Layer* 85) [Softmax]_output: 3a95fd2c
onnx::Transpose_409: 3ca03b6a
onnx::Add_415: 3d06c7ce
input.196: 3da50090
onnx::Sub_417: 3a4eb1b9
onnx::Pow_418: 3da21052
(Unnamed Layer* 101) [Shuffle]_output: 3c810a14
onnx::ReduceMean_420: 3ebb5f25
onnx::Add_421: 3d5f223c
(Unnamed Layer* 105) [Shuffle]_output: 33a9226d
onnx::Sqrt_423: 3d5f2252
onnx::Div_424: 3caac792
onnx::Mul_425: 3d75f59f
(Unnamed Layer* 110) [Shuffle]_output: 3b8e89b6
onnx::Add_426: 3cb38347
(Unnamed Layer* 113) [Shuffle]_output: 3b273eef
onnx::MatMul_427: 3cb5da33
onnx::Sigmoid_430: 3d79f99f
onnx::Mul_431: 3c00264a
input.200: 3c73fefb
onnx::Add_435: 3d3a6255
input.204: 3deac334
onnx::Sub_437: 3a86fa29
onnx::Pow_438: 3deaddfc
(Unnamed Layer* 133) [Shuffle]_output: 3c810a14
onnx::ReduceMean_440: 3f1f769e
onnx::Add_441: 3d89af77
(Unnamed Layer* 137) [Shuffle]_output: 33a9226d
onnx::Sqrt_443: 3d89af81
onnx::Div_444: 3cc144d9
onnx::Mul_445: 3d76bdf2
(Unnamed Layer* 142) [Shuffle]_output: 3b67995d
onnx::Add_446: 3c6c1371
(Unnamed Layer* 145) [Shuffle]_output: 3b69dc4b
x.3: 3c5e8f99
onnx::Gather_453: 3d40d3b1
onnx::Mul_455: 3d40d3b1
onnx::Transpose_457: 3d423385
onnx::MatMul_459: 3d08384a
onnx::MatMul_461: 3c008d21
onnx::MatMul_462: 3d423385
input.208: 3dbff6a8
(Unnamed Layer* 166) [Softmax]_output: 3a8ef654
onnx::Transpose_465: 3cc006f4
onnx::Add_471: 3d31199a
input.216: 3dee5e86
onnx::Sub_473: 3ab74145
onnx::Pow_474: 3deedbdd
(Unnamed Layer* 182) [Shuffle]_output: 3c810a14
onnx::ReduceMean_476: 3f1f9ad1
onnx::Add_477: 3d8ea519
(Unnamed Layer* 186) [Shuffle]_output: 33a9226d
onnx::Sqrt_479: 3d8ea523
onnx::Div_480: 3cc3c488
onnx::Mul_481: 3d78b243
(Unnamed Layer* 191) [Shuffle]_output: 3b8883fe
onnx::Add_482: 3ccab1ab
(Unnamed Layer* 194) [Shuffle]_output: 3b2415b4
onnx::MatMul_483: 3cddb4a5
onnx::Sigmoid_486: 3d7da9b4
onnx::Mul_487: 3c009fa3
input.220: 3c32192e
onnx::Add_491: 3dfc39e7
input.224: 3e31ab07
onnx::Sub_493: 3acd5d4e
onnx::Pow_494: 3e310174
(Unnamed Layer* 214) [Shuffle]_output: 3c810a14
onnx::ReduceMean_496: 3febd6f9
onnx::Add_497: 3e498f02
(Unnamed Layer* 218) [Shuffle]_output: 33a9226d
onnx::Sqrt_499: 3e498f08
onnx::Div_500: 3d246fd1
onnx::Mul_501: 3d87b0f6
(Unnamed Layer* 223) [Shuffle]_output: 3b282c56
onnx::Add_502: 3c3e4a83
(Unnamed Layer* 226) [Shuffle]_output: 3b98cf60
patches: 3c45ee93
onnx::Reshape_506: 3c45ee93
onnx::Reshape_509: 3c45ee93
input.228: 3c45ee93
input.236: 3cc26569
onnx::Mul_514: 3bf60923
onnx::Concat_515: 3c3fe865
input.240: 3c7227d2
input.248: 3ce3253a
onnx::Mul_519: 3be7f07e
input.252: 3c101577
input.260: 3d4694b4
onnx::Mul_523: 3c01121d
input.264: 3cd7a092
input.272: 3d2ad67f
onnx::Mul_527: 3c00eb83
input.276: 3d022800
input.284: 3c5a6e06
input.292: 3d2d55b7
onnx::Mul_533: 3c00609b
input.296: 3d0faef0
fm.3: 3dcde415
onnx::Reshape_538: 3dcde415
onnx::Reshape_541: 3dcde415
input.300: 3dcde415
onnx::Sub_544: 39d41b77
onnx::Pow_545: 3dcd8c91
(Unnamed Layer* 259) [Shuffle]_output: 3c810a14
onnx::ReduceMean_547: 3f0558de
onnx::Add_548: 3db4b715
(Unnamed Layer* 263) [Shuffle]_output: 33a9226d
onnx::Sqrt_550: 3db4b721
onnx::Div_551: 3cedb095
onnx::Mul_552: 3d56961e
(Unnamed Layer* 268) [Shuffle]_output: 3b1690d1
onnx::Add_553: 3b9fc4c2
(Unnamed Layer* 271) [Shuffle]_output: 3a81afc3
x.7: 3ba37cb2
onnx::Gather_560: 3d0f83ce
onnx::Mul_562: 3d1f2695
onnx::Transpose_564: 3cff13ab
onnx::MatMul_566: 3c8073e0
onnx::MatMul_568: 3bb7c57b
onnx::MatMul_569: 3cff13ab
input.304: 3d7fdf12
(Unnamed Layer* 292) [Softmax]_output: 3b3bc75b
onnx::Transpose_572: 3c186243
onnx::Add_578: 3cca54c9
input.312: 3dda8db4
onnx::Sub_580: 39fabaa5
onnx::Pow_581: 3ddd539f
(Unnamed Layer* 308) [Shuffle]_output: 3c810a14
onnx::ReduceMean_583: 3f149730
onnx::Add_584: 3dbfc464
(Unnamed Layer* 312) [Shuffle]_output: 33a9226d
onnx::Sqrt_586: 3dbfc470
onnx::Div_587: 3cf3fd2c
onnx::Mul_588: 3d5aae5e
(Unnamed Layer* 317) [Shuffle]_output: 3b82b60d
onnx::Add_589: 3cbf70e5
(Unnamed Layer* 320) [Shuffle]_output: 3b5cc338
onnx::MatMul_590: 3cd64d8b
onnx::Sigmoid_593: 3db7da1c
onnx::Mul_594: 3c00550c
input.316: 3c73e1a7
onnx::Add_598: 3d93ef2a
input.320: 3e0b8b78
onnx::Sub_600: 3a828993
onnx::Pow_601: 3e0b5eb0
(Unnamed Layer* 340) [Shuffle]_output: 3c810a14
onnx::ReduceMean_603: 3f63e738
onnx::Add_604: 3de87d57
(Unnamed Layer* 344) [Shuffle]_output: 33a9226d
onnx::Sqrt_606: 3de87d63
onnx::Div_607: 3d098fc2
onnx::Mul_608: 3d784e6b
(Unnamed Layer* 349) [Shuffle]_output: 3b265320
onnx::Add_609: 3c190737
(Unnamed Layer* 352) [Shuffle]_output: 3a8322ef
x.11: 3c12202a
onnx::Gather_616: 3d29c901
onnx::Mul_618: 3d14ac6c
onnx::Transpose_620: 3d320e26
onnx::MatMul_622: 3cf1dd6b
onnx::MatMul_624: 3bab7f63
onnx::MatMul_625: 3d320e26
input.324: 3d89d55b
(Unnamed Layer* 373) [Softmax]_output: 3b351b3f
onnx::Transpose_628: 3c899ea1
onnx::Add_634: 3d1e168c
input.332: 3e0e2bf3
onnx::Sub_636: 3a90d489
onnx::Pow_637: 3e0e1329
(Unnamed Layer* 389) [Shuffle]_output: 3c810a14
onnx::ReduceMean_639: 3f3b6f48
onnx::Add_640: 3e032d55
(Unnamed Layer* 393) [Shuffle]_output: 33a9226d
onnx::Sqrt_642: 3e032d5c
onnx::Div_643: 3d03fc7e
onnx::Mul_644: 3d68877e
(Unnamed Layer* 398) [Shuffle]_output: 3ba73b2e
onnx::Add_645: 3cf82b5c
(Unnamed Layer* 401) [Shuffle]_output: 3b4a3cff
onnx::MatMul_646: 3d0e735e
onnx::Sigmoid_649: 3decc5b1
onnx::Mul_650: 3c00dc81
input.336: 3ca4c125
onnx::Add_654: 3da3657e
input.340: 3e2a0d3a
onnx::Sub_656: 3aaf4bf2
onnx::Pow_657: 3e29dee3
(Unnamed Layer* 421) [Shuffle]_output: 3c810a14
onnx::ReduceMean_659: 3f84d65c
onnx::Add_660: 3e324278
(Unnamed Layer* 425) [Shuffle]_output: 33a9226d
onnx::Sqrt_662: 3e32427f
onnx::Div_663: 3d183237
onnx::Mul_664: 3d76ff6b
(Unnamed Layer* 430) [Shuffle]_output: 3b36b7fa
onnx::Add_665: 3c293e91
(Unnamed Layer* 433) [Shuffle]_output: 3b2dd017
x.15: 3c207113
onnx::Gather_672: 3d119ff5
onnx::Mul_674: 3d182073
onnx::Transpose_676: 3d143c49
onnx::MatMul_678: 3cdb6a21
onnx::MatMul_680: 3bafa92c
onnx::MatMul_681: 3d143c49
input.344: 3d816577
(Unnamed Layer* 454) [Softmax]_output: 3b320b0e
onnx::Transpose_684: 3c8d5b27
onnx::Add_690: 3d3e42cf
input.352: 3e2d3fa9
onnx::Sub_692: 3aba96e5
onnx::Pow_693: 3e2cd9be
(Unnamed Layer* 470) [Shuffle]_output: 3c810a14
onnx::ReduceMean_695: 3f96076e
onnx::Add_696: 3e333e6a
(Unnamed Layer* 474) [Shuffle]_output: 33a9226d
onnx::Sqrt_698: 3e333e70
onnx::Div_699: 3d1f25e3
onnx::Mul_700: 3d71d19d
(Unnamed Layer* 479) [Shuffle]_output: 3b9a92da
onnx::Add_701: 3cb8b861
(Unnamed Layer* 482) [Shuffle]_output: 3b5d4ef9
onnx::MatMul_702: 3cca332c
onnx::Sigmoid_705: 3db5bca8
onnx::Mul_706: 3c00e1b0
input.356: 3cb3a5f9
onnx::Add_710: 3ddb44fa
input.360: 3e770c24
onnx::Sub_712: 3af27063
onnx::Pow_713: 3e75e50a
(Unnamed Layer* 502) [Shuffle]_output: 3c810a14
onnx::ReduceMean_715: 4017cf80
onnx::Add_716: 3e7faffc
(Unnamed Layer* 506) [Shuffle]_output: 33a9226d
onnx::Sqrt_718: 3e7fb002
onnx::Div_719: 3d3c3910
onnx::Mul_720: 3d82047e
(Unnamed Layer* 511) [Shuffle]_output: 3b4569c6
onnx::Add_721: 3c3778bb
(Unnamed Layer* 514) [Shuffle]_output: 3b5f76b8
x.19: 3c2e2be9
onnx::Gather_728: 3d174e22
onnx::Mul_730: 3d1662fc
onnx::Transpose_732: 3d22738e
onnx::MatMul_734: 3ce89a88
onnx::MatMul_736: 3bada6cc
onnx::MatMul_737: 3d22738e
input.364: 3d8424b5
(Unnamed Layer* 535) [Softmax]_output: 3b3ece05
onnx::Transpose_740: 3ca38e1e
onnx::Add_746: 3d9bf8a4
input.372: 3e86f418
onnx::Sub_748: 3b0a1cbc
onnx::Pow_749: 3e869712
(Unnamed Layer* 551) [Shuffle]_output: 3c810a14
onnx::ReduceMean_751: 407edc04
onnx::Add_752: 3e8aa258
(Unnamed Layer* 555) [Shuffle]_output: 33a9226d
onnx::Sqrt_754: 3e8aa25b
onnx::Div_755: 3d3cf161
onnx::Mul_756: 3d831bf9
(Unnamed Layer* 560) [Shuffle]_output: 3b9fdfb6
onnx::Add_757: 3cb46273
(Unnamed Layer* 563) [Shuffle]_output: 3b8d620e
onnx::MatMul_758: 3cc7ffe1
onnx::Sigmoid_761: 3d9a680e
onnx::Mul_762: 3c010c30
input.376: 3d033227
onnx::Add_766: 3ec6d270
input.380: 3f1cc52d
onnx::Sub_768: 3b80c348
onnx::Pow_769: 3f1c0f15
(Unnamed Layer* 583) [Shuffle]_output: 3c810a14
onnx::ReduceMean_771: 418db998
onnx::Add_772: 3f71b9c6
(Unnamed Layer* 587) [Shuffle]_output: 33a9226d
onnx::Sqrt_774: 3f71b9c7
onnx::Div_775: 3db3a515
onnx::Mul_776: 3d954fc3
(Unnamed Layer* 592) [Shuffle]_output: 3b1844bb
onnx::Add_777: 3bf90bb5
(Unnamed Layer* 595) [Shuffle]_output: 3b8c85cb
patches.3: 3c28bb86
onnx::Reshape_781: 3c28bb86
onnx::Reshape_784: 3c28bb86
input.384: 3c28bb86
input.392: 3cdd0ded
onnx::Mul_789: 3bf81a98
onnx::Concat_790: 3c73e4c6
input.396: 3c73e4c6
input.404: 3ce0d5de
onnx::Mul_794: 3bf1568e
input.408: 3c5254a8
input.416: 3d3842ba
onnx::Mul_798: 3c00cc64
input.420: 3c49faf5
input.428: 3d4a69bc
onnx::Mul_802: 3c01d1c7
input.432: 3d02ad0f
input.440: 3c83b4fa
input.448: 3d1899e6
onnx::Mul_808: 3c00a994
input.452: 3ce76e25
fm.7: 3e1c9a84
onnx::Reshape_813: 3e1c9a84
onnx::Reshape_816: 3e1c9a84
input.456: 3e1c9a84
onnx::Sub_819: 3a37677d
onnx::Pow_820: 3e25d47b
(Unnamed Layer* 628) [Shuffle]_output: 3c810a14
onnx::ReduceMean_822: 3f4ee19b
onnx::Add_823: 3db9b919
(Unnamed Layer* 632) [Shuffle]_output: 33a9226d
onnx::Sqrt_825: 3db9b924
onnx::Div_826: 3d001797
onnx::Mul_827: 3d97fc57
(Unnamed Layer* 637) [Shuffle]_output: 3ac069ab
onnx::Add_828: 3b8f4f78
(Unnamed Layer* 640) [Shuffle]_output: 39f00154
x.23: 3b74bdc1
onnx::Gather_835: 3cf81a1e
onnx::Mul_837: 3d072a7e
onnx::Transpose_839: 3cfc20fd
onnx::MatMul_841: 3c63f60d
onnx::MatMul_843: 3b8b994d
onnx::MatMul_844: 3cfc20fd
input.460: 3d8b080f
(Unnamed Layer* 661) [Softmax]_output: 3bf89569
onnx::Transpose_847: 3c3da9d9
onnx::Add_853: 3d294f05
input.468: 3e237ba5
onnx::Sub_855: 3a88565f
onnx::Pow_856: 3e232c89
(Unnamed Layer* 677) [Shuffle]_output: 3c810a14
onnx::ReduceMean_858: 3f422efa
onnx::Add_859: 3dcfe593
(Unnamed Layer* 681) [Shuffle]_output: 33a9226d
onnx::Sqrt_861: 3dcfe59f
onnx::Div_862: 3d02677d
onnx::Mul_863: 3d8f067c
(Unnamed Layer* 686) [Shuffle]_output: 3b745c12
onnx::Add_864: 3c6ab760
(Unnamed Layer* 689) [Shuffle]_output: 3bbc527f
onnx::MatMul_865: 3c953854
onnx::Sigmoid_868: 3dac6cce
onnx::Mul_869: 3c00bf94
input.472: 3c442f99
onnx::Add_873: 3d918501
input.476: 3e445b6b
onnx::Sub_875: 3a8b6b33
onnx::Pow_876: 3e4424b3
(Unnamed Layer* 709) [Shuffle]_output: 3c810a14
onnx::ReduceMean_878: 3f91bae8
onnx::Add_879: 3e0d4156
(Unnamed Layer* 713) [Shuffle]_output: 33a9226d
onnx::Sqrt_881: 3e0d415b
onnx::Div_882: 3d102518
onnx::Mul_883: 3d947eb7
(Unnamed Layer* 718) [Shuffle]_output: 3b0e4817
onnx::Add_884: 3bd2f8ea
(Unnamed Layer* 721) [Shuffle]_output: 3a6d01e9
x.27: 3bcb5dc4
onnx::Gather_891: 3d0be8aa
onnx::Mul_893: 3d100580
onnx::Transpose_895: 3d13cc0e
onnx::MatMul_897: 3cadda6c
onnx::MatMul_899: 3b94bea7
onnx::MatMul_900: 3d13cc0e
input.480: 3d83e958
(Unnamed Layer* 742) [Softmax]_output: 3c007f7b
onnx::Transpose_903: 3c84e60c
onnx::Add_909: 3d200a1b
input.488: 3e544b58
onnx::Sub_911: 3aac1628
onnx::Pow_912: 3e5ae667
(Unnamed Layer* 758) [Shuffle]_output: 3c810a14
onnx::ReduceMean_914: 3f8bee6c
onnx::Add_915: 3e1007b4
(Unnamed Layer* 762) [Shuffle]_output: 33a9226d
onnx::Sqrt_917: 3e1007ba
onnx::Div_918: 3d12dc27
onnx::Mul_919: 3d8c6e3d
(Unnamed Layer* 767) [Shuffle]_output: 3b9f577b
onnx::Add_920: 3cbb03a5
(Unnamed Layer* 770) [Shuffle]_output: 3bc17c5d
onnx::MatMul_921: 3cdd243c
onnx::Sigmoid_924: 3e1a10a7
onnx::Mul_925: 3c010c7a
input.492: 3c7ff390
onnx::Add_929: 3db7a8e9
input.496: 3e5d8bf9
onnx::Sub_931: 3b1fa667
onnx::Pow_932: 3e5b7a70
(Unnamed Layer* 790) [Shuffle]_output: 3c810a14
onnx::ReduceMean_934: 3feb0dbf
onnx::Add_935: 3e6ba722
(Unnamed Layer* 794) [Shuffle]_output: 33a9226d
onnx::Sqrt_937: 3e6ba729
onnx::Div_938: 3d38d4b8
onnx::Mul_939: 3d868bcb
(Unnamed Layer* 799) [Shuffle]_output: 3b1c7660
onnx::Add_940: 3c09a513
(Unnamed Layer* 802) [Shuffle]_output: 3ad6b3cf
x.31: 3c004879
onnx::Gather_947: 3d1e9467
onnx::Mul_949: 3d222c02
onnx::Transpose_951: 3d1fb558
onnx::MatMul_953: 3d02bb3c
onnx::MatMul_955: 3ba77d8c
onnx::MatMul_956: 3d1fb558
input.500: 3d977ec3
(Unnamed Layer* 823) [Softmax]_output: 3c005e3d
onnx::Transpose_959: 3cad837a
onnx::Add_965: 3db61f11
input.508: 3e700b95
onnx::Sub_967: 3b4c45e7
onnx::Pow_968: 3e72d7fa
(Unnamed Layer* 839) [Shuffle]_output: 3c810a14
onnx::ReduceMean_970: 3ffcddc5
onnx::Add_971: 3e94cae7
(Unnamed Layer* 843) [Shuffle]_output: 33a9226d
onnx::Sqrt_973: 3e94caeb
onnx::Div_974: 3d457f68
onnx::Mul_975: 3d84603a
(Unnamed Layer* 848) [Shuffle]_output: 3baaf2d2
onnx::Add_976: 3cb902c2
(Unnamed Layer* 851) [Shuffle]_output: 3ba9ea41
onnx::MatMul_977: 3cdad57d
onnx::Sigmoid_980: 3e08623d
onnx::Mul_981: 3c010a14
input.512: 3d125924
onnx::Add_985: 3f1406d2
input.516: 3f3beb59
onnx::Sub_987: 3c38be28
onnx::Pow_988: 3f39bd36
(Unnamed Layer* 871) [Shuffle]_output: 3c810a14
onnx::ReduceMean_990: 41c753be
onnx::Add_991: 4010c6f9
(Unnamed Layer* 875) [Shuffle]_output: 33a9226d
onnx::Sqrt_993: 4010c6f9
onnx::Div_994: 3e0fc5aa
onnx::Mul_995: 3d6f2a13
(Unnamed Layer* 880) [Shuffle]_output: 3b237a27
onnx::Add_996: 3bfe02c7
(Unnamed Layer* 883) [Shuffle]_output: 3b943c1f
patches.7: 3c3592ae
onnx::Reshape_1000: 3c3592ae
onnx::Reshape_1003: 3c3592ae
input.520: 3c3592ae
input.528: 3d808809
onnx::Mul_1008: 3c010654
onnx::Concat_1009: 3cb124cb
input.532: 3cb124cb
input.540: 3cf75db5
onnx::Mul_1013: 3bf66df4
input.544: 3c727a1b
input.552: 3dd57f7e
onnx::Mul_1017: 3c00edf5
x.35: 3d017280
input.556: 3c3c8e46
output: 3df25c71
